
#include "data.h"
const float test[10][15] = {
  {0.68235296, 0.42352942, 0.36078432, 0.61960787, 0.4509804 ,
        0.40784314, 0.5921569 , 0.4627451 , 0.42352942, 0.57254905,
        0.4745098 , 0.4509804 , 0.4862745 , 0.49411765, 0.4862745 },
  {0.5764706 , 0.49019608, 0.45882353, 0.627451  , 0.47843137,
        0.43529412, 0.64705884, 0.47843137, 0.42352942, 0.60784316,
        0.4862745 , 0.44313726, 0.5568628 , 0.4862745 , 0.4745098},
  {0.5137255 , 0.4862745 , 0.46666667, 0.6039216 , 0.45490196,
        0.41960785, 0.62352943, 0.45490196, 0.38039216, 0.67058825,
        0.43137255, 0.3529412 , 0.6117647 , 0.44705883, 0.3882353},
  {0.59607846, 0.47843137, 0.45882353, 0.54901963, 0.48235294,
        0.47843137, 0.52156866, 0.49019608, 0.4862745 , 0.5372549 ,
        0.4862745 , 0.4862745 , 0.5764706 , 0.47843137, 0.47843137},
  {0.54509807, 0.4862745 , 0.5019608 , 0.61960787, 0.4627451 ,
        0.5372549 , 0.58431375, 0.4862745 , 0.5254902 , 0.54901963,
        0.4862745 , 0.49803922, 0.5921569 , 0.4745098 , 0.53333336},
  {0.59607846, 0.49411765, 0.54509807, 0.5764706 , 0.4745098 ,
        0.56078434, 0.52156866, 0.4862745 , 0.49411765, 0.63529414,
        0.47058824, 0.5686275 , 0.5882353 , 0.4862745 , 0.5176471},
  {0.59607846, 0.48235294, 0.4509804 , 0.62352943, 0.48235294,
        0.43137255, 0.6313726 , 0.47843137, 0.4392157 , 0.6       ,
        0.48235294, 0.45882353, 0.5411765 , 0.4862745 , 0.47843137},
  {0.5372549 , 0.49411765, 0.49411765, 0.5764706 , 0.47843137,
        0.5176471 , 0.6156863 , 0.46666667, 0.53333336, 0.5294118 ,
        0.48235294, 0.5019608 , 0.57254905, 0.49019608, 0.52156866},
  {0.59607846, 0.49019608, 0.4117647 , 0.6431373 , 0.50980395,
        0.37254903, 0.6745098 , 0.52156866, 0.36078432, 0.6313726 ,
        0.50980395, 0.39215687, 0.5921569 , 0.49411765, 0.43529412},
  {0.52156866, 0.4745098 , 0.49411765, 0.69411767, 0.46666667,
        0.53333336, 0.5568628 , 0.46666667, 0.50980395, 0.5254902 ,
        0.49019608, 0.49019608, 0.6862745 , 0.4392157 , 0.5411765}
};

const float labels[10][3] = {
  {0., 0., 1.},
  {0., 1., 0.},
  {0., 0., 1.},
  {0., 1., 0.},
  {1., 0., 0.},
  {1., 0., 0.},
  {0., 1., 0.},
  {1., 0., 0.},
  {0., 0., 1.},
  {1., 0., 0.}
};



const unsigned char mi_data[] =  {
  0x18, 0x00, 0x00, 0x00, 0x54, 0x46, 0x4c, 0x33, 0x00, 0x00, 0x0e, 0x00,
  0x18, 0x00, 0x04, 0x00, 0x08, 0x00, 0x0c, 0x00, 0x10, 0x00, 0x14, 0x00,
  0x0e, 0x00, 0x00, 0x00, 0x03, 0x00, 0x00, 0x00, 0x9c, 0x0e, 0x00, 0x00,
  0xc8, 0x09, 0x00, 0x00, 0xb0, 0x09, 0x00, 0x00, 0x04, 0x00, 0x00, 0x00,
  0x0c, 0x00, 0x00, 0x00, 0xa0, 0x09, 0x00, 0x00, 0x50, 0x09, 0x00, 0x00,
  0x78, 0x08, 0x00, 0x00, 0x68, 0x04, 0x00, 0x00, 0x60, 0x04, 0x00, 0x00,
  0x58, 0x04, 0x00, 0x00, 0x3c, 0x04, 0x00, 0x00, 0x34, 0x04, 0x00, 0x00,
  0x64, 0x00, 0x00, 0x00, 0x14, 0x00, 0x00, 0x00, 0x0c, 0x00, 0x00, 0x00,
  0x04, 0x00, 0x00, 0x00, 0xcc, 0xf1, 0xff, 0xff, 0xd0, 0xf1, 0xff, 0xff,
  0xea, 0xf6, 0xff, 0xff, 0x04, 0x00, 0x00, 0x00, 0x40, 0x00, 0x00, 0x00,
  0x00, 0x00, 0x00, 0x00, 0x00, 0x00, 0x00, 0x00, 0x58, 0x1b, 0x48, 0xbf,
  0x56, 0xcd, 0x16, 0xbf, 0x09, 0xe6, 0xaa, 0x3e, 0x4b, 0x59, 0x90, 0x3d,
  0x82, 0x7d, 0x4b, 0xbf, 0x00, 0x00, 0x00, 0x00, 0x5f, 0x19, 0x44, 0xbf,
  0x96, 0xef, 0xc5, 0xbe, 0x00, 0x00, 0x00, 0x00, 0x00, 0x00, 0x00, 0x00,
  0x00, 0x00, 0x00, 0x00, 0x00, 0x00, 0x00, 0x00, 0x00, 0x00, 0x00, 0x00,
  0x8d, 0x71, 0xc8, 0xbe, 0x36, 0xf7, 0xff, 0xff, 0x04, 0x00, 0x00, 0x00,
  0xc0, 0x03, 0x00, 0x00, 0x9c, 0x08, 0xb3, 0xbe, 0x68, 0x2f, 0x2d, 0x3d,
  0x09, 0x5c, 0x93, 0xbe, 0xf7, 0x42, 0xaf, 0xbe, 0x65, 0xea, 0x9e, 0xbe,
  0x74, 0xa0, 0xbb, 0xbe, 0xb6, 0xf9, 0xa5, 0x3e, 0x40, 0x5c, 0xa5, 0x3c,
  0xcc, 0x04, 0x97, 0x3e, 0x8e, 0xa0, 0xc2, 0x3e, 0x5c, 0xd2, 0x3f, 0xbe,
  0x55, 0xc1, 0x93, 0xbe, 0x50, 0xde, 0xe9, 0xbc, 0xd0, 0xe5, 0x18, 0xbd,
  0x73, 0xda, 0x60, 0xbe, 0x50, 0xfb, 0x42, 0x3d, 0x40, 0x70, 0xfb, 0xbc,
  0x7d, 0xde, 0x42, 0xbe, 0x40, 0xf3, 0x76, 0xbd, 0xb2, 0x54, 0xa0, 0x3e,
  0x10, 0x4d, 0xbe, 0xbd, 0x60, 0xed, 0x11, 0xbe, 0x70, 0x06, 0x1d, 0x3e,
  0x50, 0x85, 0x1b, 0x3e, 0xc0, 0xa4, 0xbf, 0xbc, 0x94, 0x00, 0x9b, 0xbe,
  0xf4, 0xf1, 0x92, 0xbe, 0x9c, 0x67, 0x35, 0x3e, 0xcc, 0xe6, 0xd2, 0xbe,
  0xde, 0x32, 0xbb, 0x3e, 0x19, 0xef, 0xf3, 0xbd, 0x1d, 0xb7, 0x76, 0xbe,
  0x66, 0x9b, 0x22, 0x3f, 0x85, 0xec, 0x7d, 0x3e, 0xc0, 0x59, 0xef, 0xbe,
  0x11, 0x78, 0x51, 0x3e, 0x98, 0x5b, 0x8e, 0x3e, 0x58, 0xca, 0xd7, 0xbd,
  0xd2, 0xc3, 0x07, 0x3f, 0x6e, 0x7e, 0x9c, 0x3e, 0xa9, 0x1e, 0x96, 0xbe,
  0xee, 0x06, 0xf5, 0x3e, 0x0a, 0x72, 0x84, 0x3d, 0xfe, 0xad, 0x45, 0xbf,
  0xdf, 0xb9, 0x7e, 0x3f, 0xc1, 0x6c, 0x5c, 0x3f, 0x0f, 0x63, 0x21, 0xbf,
  0xff, 0x82, 0x8c, 0x3e, 0x3c, 0x22, 0x70, 0x3f, 0x3a, 0xcd, 0x97, 0xba,
  0x8c, 0xcd, 0xab, 0xbe, 0xb1, 0xab, 0x75, 0x3e, 0x61, 0xfd, 0x9b, 0x3d,
  0x00, 0x3f, 0xde, 0xbe, 0x57, 0x08, 0x8d, 0x3f, 0x1f, 0xa5, 0x3e, 0xbf,
  0xb8, 0xa3, 0x41, 0xbd, 0x12, 0xa7, 0xb6, 0x3e, 0x79, 0x59, 0x54, 0xbe,
  0x49, 0x51, 0x22, 0x3f, 0xe0, 0xa9, 0x9d, 0x3e, 0x3a, 0x30, 0x90, 0xbe,
  0xf5, 0x38, 0x96, 0xbf, 0xc0, 0xe6, 0x03, 0x3f, 0x8c, 0xc9, 0xfb, 0xbd,
  0xb3, 0xa8, 0x2d, 0xbf, 0x8d, 0x96, 0xba, 0x3e, 0xd4, 0xf4, 0x72, 0x3e,
  0xeb, 0xdf, 0x42, 0xbf, 0x06, 0x8e, 0xd2, 0xbd, 0x5f, 0x29, 0x06, 0x3f,
  0x02, 0x9a, 0x77, 0x3e, 0x31, 0xfb, 0x06, 0xbf, 0x0f, 0xb5, 0xf8, 0x3e,
  0x7b, 0x91, 0x45, 0xbe, 0x4a, 0xe1, 0xbb, 0x3d, 0x7a, 0x7d, 0xcc, 0x3e,
  0x8c, 0x56, 0xe2, 0xbe, 0xdd, 0x6d, 0x9e, 0x3e, 0xd2, 0xf0, 0x85, 0x3e,
  0x7f, 0xd5, 0xeb, 0xbe, 0xae, 0x67, 0x16, 0x3f, 0x69, 0x48, 0x1c, 0xbd,
  0x04, 0x26, 0x77, 0xbf, 0xea, 0xca, 0x6d, 0x3e, 0x27, 0x04, 0x78, 0x3d,
  0xda, 0xf1, 0xaa, 0xbe, 0x0d, 0xf3, 0xbf, 0x3e, 0xc8, 0xe8, 0x4f, 0xbe,
  0x9a, 0x12, 0x21, 0xbf, 0xab, 0xf9, 0x52, 0x3e, 0x22, 0x42, 0x3a, 0xbf,
  0xb2, 0xb3, 0x70, 0x3f, 0xf9, 0x48, 0x2a, 0x3e, 0x7e, 0xcb, 0x38, 0xbf,
  0xce, 0xda, 0x47, 0x3f, 0x24, 0x2b, 0x79, 0x3e, 0x6c, 0x8c, 0x2c, 0xbf,
  0xaa, 0x4c, 0x93, 0x3e, 0x4a, 0xf7, 0xaa, 0x3e, 0xc8, 0x16, 0xd6, 0xbd,
  0x35, 0x35, 0xd0, 0x3e, 0x28, 0x93, 0xe0, 0x3d, 0xf8, 0xde, 0x18, 0xbf,
  0x78, 0x3d, 0x86, 0x3f, 0x28, 0xd5, 0xf5, 0x3d, 0xf4, 0xa0, 0x6c, 0x3e,
  0x00, 0x8c, 0x44, 0xba, 0xf2, 0xf4, 0xc7, 0x3e, 0x18, 0x43, 0x09, 0x3d,
  0xdc, 0x4d, 0x15, 0x3e, 0xf2, 0x68, 0xae, 0xbe, 0x2b, 0x92, 0xa0, 0xbe,
  0xa4, 0xaa, 0xe5, 0xbd, 0xf0, 0xa2, 0x02, 0x3e, 0xd0, 0xbb, 0x2c, 0xbd,
  0xd1, 0x4c, 0x87, 0xbe, 0x7c, 0x34, 0xc9, 0xbe, 0x58, 0x85, 0x86, 0x3d,
  0x60, 0x23, 0xa0, 0x3d, 0xd9, 0xe6, 0x2d, 0x3e, 0x2e, 0x19, 0xdd, 0xbd,
  0x03, 0x6a, 0x0e, 0x3f, 0x18, 0xa9, 0xa7, 0x3c, 0x7b, 0x3f, 0x5c, 0xbf,
  0xc5, 0x84, 0x12, 0x3f, 0xf9, 0x45, 0x8e, 0x3e, 0x94, 0x01, 0x04, 0xbf,
  0x53, 0xcb, 0x8c, 0x3e, 0xf1, 0xd9, 0x01, 0x3e, 0x76, 0xdf, 0xd8, 0xbe,
  0xf0, 0xf7, 0xbc, 0x3e, 0x9a, 0x63, 0x99, 0x3e, 0x3c, 0x09, 0x38, 0xbe,
  0x26, 0xe3, 0x6a, 0x3f, 0x8a, 0xe0, 0xd4, 0xbe, 0x76, 0xae, 0x5b, 0xbf,
  0x43, 0x1a, 0x0b, 0x3f, 0x8b, 0xb5, 0x0c, 0x3d, 0x9c, 0x80, 0x1c, 0xbf,
  0x81, 0xe9, 0xf1, 0x3e, 0x10, 0xa7, 0x8b, 0x3d, 0xed, 0x1f, 0x75, 0xbe,
  0x88, 0xf6, 0xd7, 0x3e, 0xa7, 0xb2, 0x13, 0x3c, 0x12, 0x7c, 0x61, 0xbe,
  0x4b, 0xc0, 0x55, 0x3f, 0x40, 0x37, 0x57, 0xbe, 0x5c, 0xec, 0xee, 0xbe,
  0x8e, 0x65, 0x83, 0x3f, 0xbc, 0xec, 0x39, 0xbe, 0x80, 0xda, 0x7c, 0x3e,
  0xc4, 0xa7, 0x6d, 0x3e, 0x4b, 0x71, 0xdb, 0xbe, 0xe8, 0xa1, 0x89, 0xbd,
  0xe6, 0xf6, 0x28, 0xbe, 0x38, 0x47, 0xf1, 0x3d, 0xd6, 0x35, 0xdb, 0x3e,
  0x77, 0xfa, 0x83, 0xbe, 0x28, 0x2b, 0xe6, 0xbd, 0x04, 0xa3, 0x95, 0x3e,
  0xdb, 0xd2, 0xd3, 0xbe, 0x04, 0x49, 0x5b, 0x3e, 0x2f, 0x31, 0x78, 0xbe,
  0x00, 0xa6, 0xb9, 0xbb, 0xaa, 0x27, 0x83, 0xbe, 0x59, 0x31, 0x8a, 0xbe,
  0x28, 0x86, 0x5c, 0xbd, 0x4a, 0x11, 0xa2, 0x3e, 0xa1, 0x92, 0x8d, 0xbe,
  0xa4, 0x5c, 0x31, 0x3e, 0x10, 0x77, 0x8c, 0x3c, 0x2a, 0xaa, 0xc2, 0xbe,
  0x18, 0xf3, 0xdb, 0x3d, 0xa8, 0x87, 0x1e, 0x3e, 0x28, 0x66, 0xdd, 0x3e,
  0x0a, 0x06, 0x8d, 0xbe, 0x00, 0x11, 0x59, 0x3d, 0x3e, 0xf4, 0xd2, 0xbe,
  0xc0, 0x01, 0xd8, 0xbc, 0x00, 0x11, 0xd9, 0x3c, 0x02, 0xd6, 0xc5, 0x3e,
  0xfc, 0x4e, 0x2d, 0x3e, 0x4c, 0x52, 0xcd, 0x3e, 0x9c, 0x69, 0x71, 0x3e,
  0x80, 0x2f, 0x23, 0xbd, 0x4c, 0xf2, 0x4a, 0xbe, 0x64, 0x84, 0x30, 0x3e,
  0x77, 0x24, 0x8a, 0xbe, 0x30, 0x45, 0x16, 0xbe, 0x4b, 0x0f, 0x8d, 0xbe,
  0x19, 0x02, 0x4f, 0xbe, 0x38, 0x9a, 0x1f, 0x3d, 0x79, 0x9f, 0xc6, 0xbe,
  0xf0, 0x28, 0xc0, 0xbe, 0x08, 0xab, 0xe0, 0xbe, 0x28, 0x22, 0xa1, 0x3d,
  0x5d, 0x04, 0xa5, 0xbe, 0x0e, 0xee, 0x90, 0xbe, 0x58, 0xc0, 0x91, 0x3e,
  0x28, 0x34, 0xc9, 0xbe, 0x72, 0x86, 0xd4, 0xbe, 0xac, 0x76, 0x68, 0xbe,
  0x92, 0x62, 0xbd, 0x3e, 0xa2, 0x0d, 0x1d, 0xbe, 0xd8, 0xee, 0x0f, 0xbd,
  0x64, 0x45, 0x3c, 0xbe, 0x5c, 0x44, 0xf6, 0xbd, 0x97, 0xdc, 0x98, 0xbe,
  0x8a, 0x2e, 0xe0, 0x3e, 0x34, 0x4c, 0xb8, 0x3e, 0x0c, 0xc7, 0x11, 0x3e,
  0x5c, 0xfe, 0x1b, 0x3e, 0x74, 0x16, 0xc2, 0xbe, 0xfc, 0x68, 0xce, 0x3e,
  0x3c, 0x0f, 0x77, 0xbe, 0x11, 0x09, 0x96, 0xbe, 0x80, 0x3d, 0x9a, 0xbb,
  0xf2, 0x43, 0xa4, 0xbe, 0x88, 0xd2, 0x66, 0xbe, 0x6c, 0xa0, 0x82, 0x3e,
  0xd0, 0x76, 0xc9, 0x3d, 0x30, 0xa2, 0x6a, 0xbd, 0xd0, 0xb0, 0xd9, 0x3d,
  0xc3, 0xfc, 0x60, 0xbe, 0xf3, 0x90, 0x03, 0xbe, 0x6e, 0x05, 0x82, 0xbe,
  0x6f, 0xdb, 0x17, 0x3f, 0xf8, 0xec, 0x7a, 0xbe, 0xe8, 0xff, 0x2c, 0xbe,
  0x49, 0x54, 0x84, 0x3e, 0x04, 0x74, 0x16, 0x3e, 0x8b, 0x64, 0x42, 0xbf,
  0xfa, 0x74, 0xe5, 0x3e, 0xb4, 0x0a, 0x58, 0x3e, 0x78, 0xb9, 0xbd, 0xbd,
  0x1f, 0xc3, 0x3d, 0x3f, 0x17, 0xb8, 0x80, 0xbe, 0x0d, 0x7a, 0x15, 0xbf,
  0xc1, 0xa1, 0x6a, 0x3f, 0xec, 0xf5, 0xff, 0xff, 0x06, 0xfb, 0xff, 0xff,
  0x04, 0x00, 0x00, 0x00, 0x0c, 0x00, 0x00, 0x00, 0x95, 0x74, 0x94, 0xbf,
  0xf1, 0x83, 0x8c, 0xbe, 0xd7, 0x8c, 0x9e, 0x3d, 0x08, 0xf6, 0xff, 0xff,
  0x0c, 0xf6, 0xff, 0xff, 0x26, 0xfb, 0xff, 0xff, 0x04, 0x00, 0x00, 0x00,
  0x00, 0x04, 0x00, 0x00, 0x7a, 0xcc, 0xc5, 0xbe, 0xfb, 0x7b, 0xb1, 0xbe,
  0xcc, 0x30, 0xb1, 0xbd, 0x95, 0x8d, 0x38, 0xc0, 0x66, 0xb7, 0xec, 0xbe,
  0x66, 0x81, 0x8e, 0xbf, 0x0b, 0x16, 0x44, 0x3c, 0x8c, 0x52, 0xea, 0x3d,
  0x7b, 0xd1, 0x55, 0xbd, 0xfd, 0x2a, 0x1d, 0xc0, 0x1c, 0x31, 0x6c, 0xbe,
  0x02, 0xcf, 0x87, 0xbe, 0xe8, 0xe7, 0xb3, 0xbe, 0x84, 0xd0, 0xd9, 0x3d,
  0x7a, 0xdc, 0x07, 0x3e, 0x74, 0xd0, 0x5c, 0x3d, 0x10, 0xca, 0x70, 0xbe,
  0xd8, 0x1e, 0xce, 0xbe, 0xcb, 0x94, 0x8e, 0xc0, 0x56, 0x81, 0xb3, 0x3d,
  0x7d, 0x4b, 0x46, 0x40, 0xd9, 0x64, 0x76, 0x3f, 0xa9, 0x19, 0x65, 0xc0,
  0xdb, 0x74, 0x95, 0x3e, 0x18, 0x4e, 0xc1, 0xc0, 0x57, 0x24, 0xd8, 0x3f,
  0x07, 0xee, 0x9d, 0x3e, 0x08, 0x6b, 0x83, 0xbd, 0xb4, 0x5a, 0x8c, 0xbe,
  0x36, 0x6d, 0x7a, 0x3e, 0x34, 0xa3, 0x8b, 0xbe, 0xba, 0xd0, 0x05, 0x40,
  0xbf, 0x39, 0xcc, 0x3e, 0xb7, 0x2c, 0xa7, 0xbe, 0x14, 0x4b, 0x39, 0x40,
  0x59, 0xae, 0x65, 0x3f, 0x7f, 0x57, 0xe6, 0x40, 0xc3, 0x07, 0x84, 0x40,
  0x2d, 0xb2, 0x0d, 0x40, 0x3a, 0x49, 0xce, 0xbe, 0x95, 0x65, 0x5d, 0x40,
  0xf2, 0x48, 0x6e, 0x40, 0x00, 0xc8, 0x52, 0xb9, 0xe2, 0xc2, 0x60, 0x3e,
  0x5e, 0xfe, 0x0d, 0x3e, 0x6e, 0x14, 0x54, 0x3e, 0x54, 0xd5, 0xd1, 0x3d,
  0x1f, 0x7b, 0x8d, 0x40, 0xc6, 0x52, 0x1a, 0x3e, 0xb1, 0xe0, 0x76, 0xbe,
  0xfb, 0xe4, 0xf4, 0x3e, 0xba, 0x75, 0x0b, 0xc0, 0xcc, 0xe1, 0x20, 0xbf,
  0xe4, 0x5c, 0xab, 0x3f, 0xbc, 0xfa, 0xb9, 0xbe, 0x28, 0xf0, 0x41, 0x3d,
  0x52, 0x1b, 0x2a, 0x3f, 0xd1, 0x97, 0x23, 0xc0, 0x04, 0x12, 0xaa, 0xbd,
  0x30, 0x34, 0x39, 0xbe, 0xbc, 0x01, 0x74, 0xbe, 0x7e, 0x8c, 0x92, 0xbe,
  0x2f, 0xe1, 0x82, 0xbe, 0x02, 0x02, 0x1c, 0xbd, 0x9a, 0x17, 0x22, 0x3e,
  0x66, 0x30, 0x60, 0x3e, 0x01, 0x24, 0x30, 0x40, 0x2c, 0x51, 0x3a, 0x3f,
  0x88, 0x86, 0x02, 0xc0, 0xa6, 0xa0, 0x87, 0xbf, 0xb0, 0x25, 0x97, 0xbf,
  0x3d, 0xca, 0xb7, 0x3e, 0x43, 0xce, 0x75, 0x40, 0xfe, 0xe5, 0xba, 0xbf,
  0xa0, 0xaa, 0x23, 0x3d, 0x06, 0x4f, 0x6e, 0xbe, 0x70, 0x59, 0xaf, 0xbe,
  0x88, 0x4c, 0x27, 0xbe, 0xe6, 0xa7, 0x1d, 0x3e, 0x81, 0x83, 0x87, 0x40,
  0x1a, 0xe1, 0x59, 0x3e, 0xb0, 0x88, 0x80, 0xbe, 0x42, 0xf1, 0x4a, 0x40,
  0x2f, 0x34, 0xb3, 0x3e, 0xa1, 0x9d, 0x18, 0xc0, 0xd1, 0x52, 0x5e, 0xbf,
  0x93, 0x95, 0x39, 0x40, 0x3c, 0xbd, 0xb6, 0x3d, 0x59, 0x62, 0x91, 0x40,
  0xcf, 0x1d, 0x52, 0x40, 0x35, 0xd3, 0x7a, 0xbe, 0x2f, 0x45, 0xba, 0x3e,
  0x87, 0x6f, 0x84, 0x3e, 0x5e, 0xd3, 0x59, 0x3e, 0x70, 0x9a, 0xe0, 0xbc,
  0x17, 0xdb, 0xa8, 0x40, 0xed, 0xbf, 0xcb, 0xbe, 0xb9, 0x26, 0x8e, 0x3e,
  0xc3, 0x8d, 0xb3, 0x3f, 0x92, 0x14, 0xbf, 0x3d, 0x2e, 0x6c, 0x6f, 0xc0,
  0xb5, 0x8f, 0xb8, 0xbf, 0x06, 0xcf, 0x80, 0x40, 0x74, 0xc8, 0xa3, 0xbd,
  0x01, 0x30, 0xbe, 0x3f, 0xa9, 0x33, 0xb6, 0x40, 0xf9, 0x74, 0x85, 0xbe,
  0x37, 0x7e, 0xd3, 0xbe, 0x70, 0x16, 0xc9, 0xbd, 0x66, 0x82, 0x1b, 0xbe,
  0x24, 0x29, 0xf2, 0x3d, 0x12, 0xb3, 0x26, 0x40, 0x01, 0x79, 0xbc, 0x3e,
  0xee, 0x96, 0x54, 0xbe, 0x5b, 0x07, 0x5c, 0xbf, 0xe6, 0xea, 0x8b, 0x3e,
  0x9a, 0x41, 0x98, 0x40, 0x2a, 0xea, 0x07, 0x40, 0xce, 0xae, 0x2e, 0xc0,
  0x47, 0xda, 0xbd, 0xbe, 0xb7, 0x05, 0x79, 0xbf, 0x35, 0xf8, 0x8a, 0xc0,
  0xd2, 0xd5, 0x0c, 0x3e, 0x07, 0xdb, 0xc1, 0x3e, 0x22, 0x5b, 0x43, 0x3e,
  0x8e, 0x54, 0x3c, 0x3e, 0xd3, 0xf4, 0xc7, 0x3e, 0x52, 0xd1, 0x04, 0xc0,
  0x00, 0x1a, 0x91, 0x3a, 0x46, 0x3f, 0x7b, 0x3e, 0x0a, 0x3e, 0x84, 0x3f,
  0xe8, 0xa3, 0xc7, 0x3e, 0x21, 0x13, 0x5f, 0xc0, 0x5c, 0x38, 0xc4, 0xbf,
  0x4e, 0xd1, 0x5d, 0x40, 0xc8, 0xd8, 0xb9, 0xbe, 0xf1, 0xdd, 0x9a, 0x3f,
  0x20, 0xcd, 0xa9, 0x40, 0x13, 0x43, 0xd4, 0xbe, 0x3a, 0x5f, 0x3a, 0x3e,
  0xf0, 0x73, 0x11, 0xbd, 0x9e, 0x86, 0xdd, 0xbe, 0x16, 0xa7, 0x6e, 0x3e,
  0xdb, 0x80, 0xf7, 0x3f, 0x3b, 0x52, 0x82, 0x3e, 0x45, 0xf6, 0xa7, 0xbe,
  0xf1, 0x0d, 0x28, 0xbe, 0x86, 0x46, 0x0d, 0x3b, 0xd8, 0x68, 0x33, 0xbe,
  0xa4, 0x45, 0x81, 0xbd, 0xa6, 0x3a, 0xa6, 0xbe, 0x70, 0x3d, 0xf3, 0xbd,
  0x4c, 0x18, 0x91, 0xbe, 0xdb, 0x19, 0x86, 0xbd, 0x38, 0x50, 0x1f, 0xbe,
  0xc2, 0x3d, 0x4a, 0x3e, 0xf2, 0x35, 0x7e, 0x3e, 0x6f, 0xfe, 0xc5, 0x3e,
  0x8a, 0xab, 0x76, 0xbe, 0xf5, 0x93, 0x0d, 0x3e, 0x84, 0x13, 0xac, 0x3d,
  0x82, 0x73, 0x02, 0x3e, 0x20, 0x1b, 0xaf, 0x3f, 0x6d, 0x4e, 0x5a, 0x3e,
  0x88, 0x24, 0x95, 0xc0, 0x94, 0x16, 0xed, 0xbf, 0x4b, 0xd4, 0x50, 0x40,
  0xde, 0x3b, 0x30, 0x3e, 0x7c, 0x80, 0x90, 0x3f, 0x2e, 0xd1, 0xbb, 0x40,
  0xc7, 0x3e, 0xbc, 0x3e, 0x3e, 0xf5, 0x68, 0x3e, 0xb7, 0xf3, 0xcc, 0xbe,
  0xd9, 0x24, 0xc8, 0x3e, 0xcc, 0x96, 0xd6, 0x3d, 0xb2, 0x8e, 0x44, 0x40,
  0x88, 0xc5, 0xd6, 0xbe, 0xbb, 0x09, 0xb5, 0x3e, 0xa7, 0x7f, 0x43, 0xbe,
  0x6b, 0x00, 0x8e, 0x3f, 0x02, 0x6b, 0x28, 0x41, 0xa3, 0x7d, 0x98, 0x40,
  0x8c, 0x09, 0x21, 0xc0, 0xc9, 0xec, 0xc7, 0x3e, 0x99, 0x39, 0xf7, 0xbe,
  0x75, 0x18, 0x8e, 0xc0, 0x30, 0x1c, 0x0a, 0xbe, 0xbc, 0x25, 0xfe, 0x3d,
  0x52, 0x5b, 0xdb, 0xbe, 0xf8, 0x01, 0x75, 0xbe, 0x1c, 0x39, 0xfc, 0x3d,
  0xce, 0x36, 0xf5, 0xbf, 0xe9, 0xff, 0xab, 0xbe, 0x30, 0xdc, 0x20, 0xbe,
  0xab, 0x89, 0x0b, 0x3d, 0x39, 0xf0, 0x0a, 0xbb, 0x31, 0x74, 0xe3, 0x3b,
  0xbc, 0xbd, 0x88, 0x3c, 0x45, 0x5e, 0x88, 0xbe, 0x7f, 0x7d, 0xc5, 0x3e,
  0x0f, 0xe6, 0xa8, 0xbe, 0x5c, 0x0b, 0x01, 0xbe, 0x2f, 0x88, 0xb1, 0x3e,
  0x80, 0x9d, 0xdb, 0x3c, 0x82, 0xaa, 0x7d, 0x3e, 0x85, 0x73, 0x79, 0xbe,
  0x7b, 0x19, 0xcd, 0x3e, 0xce, 0xed, 0xae, 0xbd, 0x27, 0xd8, 0x96, 0xbe,
  0xda, 0x61, 0x3e, 0xbe, 0x36, 0xde, 0x14, 0x40, 0x6d, 0xb0, 0xa7, 0x3d,
  0xf5, 0x48, 0x51, 0x3f, 0xa5, 0x95, 0x40, 0xbf, 0xf9, 0x53, 0x3d, 0xc1,
  0x74, 0x3c, 0x0a, 0xbe, 0x9e, 0x43, 0x26, 0x40, 0xc0, 0xdc, 0x16, 0x40,
  0x4d, 0xb9, 0x3d, 0xbe, 0x8b, 0x31, 0xcb, 0x3e, 0x55, 0x7e, 0x57, 0xbe,
  0xc6, 0x09, 0x80, 0xbe, 0xc0, 0xa3, 0xb8, 0x3b, 0x01, 0x96, 0xbf, 0x3f,
  0x90, 0x12, 0x07, 0xbd, 0x08, 0xe0, 0xf8, 0xbd, 0x61, 0xf9, 0xc7, 0x3f,
  0x7a, 0x2f, 0x72, 0x3f, 0xca, 0x5c, 0xb0, 0xbf, 0x33, 0xde, 0xe0, 0x3c,
  0xd4, 0xe0, 0x98, 0xbf, 0xe0, 0x88, 0xa4, 0xbe, 0x90, 0xbe, 0x17, 0x40,
  0xec, 0x00, 0x88, 0xc0, 0xbc, 0xad, 0x84, 0xbe, 0x4e, 0x25, 0x4f, 0x3e,
  0xd9, 0x47, 0xb5, 0x3e, 0xc3, 0xee, 0x9a, 0x3e, 0x05, 0x7c, 0x6c, 0xbe,
  0x0f, 0x4e, 0xaa, 0x3b, 0xf1, 0x55, 0x91, 0x3e, 0xe2, 0x7e, 0x32, 0x3e,
  0xd7, 0x89, 0xbb, 0xc0, 0x2d, 0x47, 0x7a, 0xbd, 0x37, 0x37, 0x03, 0x40,
  0x86, 0x43, 0x14, 0x3f, 0xbf, 0x02, 0xf9, 0xc0, 0xc7, 0x29, 0xc1, 0xbe,
  0x97, 0xd1, 0xfc, 0xc0, 0x29, 0x82, 0x3b, 0x40, 0xbd, 0xd1, 0xd9, 0x3e,
  0xa2, 0x4a, 0xd8, 0xbe, 0x86, 0x2b, 0x3d, 0x3e, 0xd8, 0xc7, 0xae, 0xbd,
  0x59, 0x6d, 0x69, 0xbe, 0x7d, 0x65, 0xd5, 0x3f, 0x32, 0xff, 0xff, 0xff,
  0x04, 0x00, 0x00, 0x00, 0xc0, 0x00, 0x00, 0x00, 0xc9, 0x35, 0x9b, 0xbf,
  0x9a, 0x99, 0x93, 0x40, 0x02, 0x03, 0x8d, 0xbf, 0xe0, 0x10, 0x83, 0xbf,
  0x51, 0x31, 0x9a, 0xbe, 0x7d, 0xb3, 0xa5, 0x3f, 0x65, 0x6c, 0x9b, 0x3f,
  0x7c, 0x90, 0x3b, 0xc0, 0xed, 0x6b, 0x00, 0x40, 0x51, 0x61, 0x91, 0x3e,
  0x5e, 0x12, 0x52, 0x3f, 0x29, 0x70, 0x03, 0xc0, 0x49, 0x93, 0x72, 0xbe,
  0x1c, 0xa9, 0x9f, 0x40, 0x98, 0xaa, 0x99, 0xbf, 0x18, 0x61, 0x82, 0x40,
  0x43, 0x46, 0xd9, 0x3e, 0x90, 0xa3, 0x8d, 0xc0, 0x9c, 0x4c, 0x23, 0xbf,
  0xe2, 0x27, 0x7a, 0x3f, 0xc0, 0x28, 0x89, 0x3f, 0x2b, 0xb3, 0xc1, 0x3d,
  0x85, 0xef, 0xba, 0xbf, 0x7e, 0x70, 0x20, 0xbe, 0x68, 0x07, 0xb4, 0xbf,
  0x3c, 0xf5, 0x29, 0xbe, 0x0a, 0x6c, 0xa1, 0xbf, 0x4c, 0xb2, 0x7f, 0xbd,
  0xb7, 0x7e, 0x3a, 0x3e, 0x09, 0x0c, 0x1a, 0xc0, 0x02, 0xa2, 0x2b, 0x3f,
  0x95, 0x62, 0x6e, 0xc0, 0xf5, 0x8a, 0xd3, 0xbf, 0x11, 0xf8, 0xf9, 0x3f,
  0x7e, 0x6d, 0x09, 0xbf, 0x35, 0xb5, 0x8e, 0xbf, 0x64, 0xa3, 0x02, 0xc0,
  0x99, 0x22, 0x8f, 0xc0, 0x8e, 0x72, 0xe9, 0xbf, 0xd8, 0xe8, 0x88, 0x3f,
  0x32, 0xa4, 0x22, 0xc0, 0x88, 0x2f, 0x9a, 0xbd, 0xac, 0x0b, 0xbd, 0xbf,
  0x5d, 0x87, 0xd4, 0xbb, 0x54, 0x88, 0x04, 0xbf, 0x5e, 0x70, 0xbd, 0xbf,
  0x08, 0xb5, 0x2c, 0xbf, 0x15, 0x5a, 0x02, 0x40, 0x00, 0x00, 0x06, 0x00,
  0x08, 0x00, 0x04, 0x00, 0x06, 0x00, 0x00, 0x00, 0x04, 0x00, 0x00, 0x00,
  0x40, 0x00, 0x00, 0x00, 0x11, 0x2c, 0x8b, 0x3f, 0x70, 0x02, 0x89, 0x3e,
  0xda, 0x7c, 0x6b, 0x40, 0xa9, 0x4d, 0x42, 0x3f, 0xa8, 0xd5, 0xb0, 0x3b,
  0xc5, 0x7d, 0xf6, 0x3b, 0xa1, 0x45, 0xc1, 0x3c, 0x49, 0xb7, 0x9c, 0x3f,
  0xd1, 0x2f, 0x26, 0xbe, 0x25, 0x57, 0x94, 0xbd, 0x8b, 0x45, 0xa6, 0xbd,
  0x7b, 0x31, 0xc3, 0x3f, 0x98, 0x9a, 0x97, 0xbd, 0xc2, 0x29, 0x54, 0x3f,
  0xf9, 0x95, 0xb0, 0x3e, 0x1e, 0xd2, 0x61, 0x3e, 0x3c, 0xfb, 0xff, 0xff,
  0x0f, 0x00, 0x00, 0x00, 0x54, 0x4f, 0x43, 0x4f, 0x20, 0x43, 0x6f, 0x6e,
  0x76, 0x65, 0x72, 0x74, 0x65, 0x64, 0x2e, 0x00, 0x01, 0x00, 0x00, 0x00,
  0x10, 0x00, 0x00, 0x00, 0x0c, 0x00, 0x14, 0x00, 0x04, 0x00, 0x08, 0x00,
  0x0c, 0x00, 0x10, 0x00, 0x0c, 0x00, 0x00, 0x00, 0x20, 0x01, 0x00, 0x00,
  0x14, 0x01, 0x00, 0x00, 0x08, 0x01, 0x00, 0x00, 0x04, 0x00, 0x00, 0x00,
  0x04, 0x00, 0x00, 0x00, 0xc0, 0x00, 0x00, 0x00, 0x78, 0x00, 0x00, 0x00,
  0x34, 0x00, 0x00, 0x00, 0x10, 0x00, 0x00, 0x00, 0x00, 0x00, 0x0a, 0x00,
  0x10, 0x00, 0x04, 0x00, 0x08, 0x00, 0x0c, 0x00, 0x0a, 0x00, 0x00, 0x00,
  0x01, 0x00, 0x00, 0x00, 0x10, 0x00, 0x00, 0x00, 0x04, 0x00, 0x00, 0x00,
  0x01, 0x00, 0x00, 0x00, 0x00, 0x00, 0x00, 0x00, 0x01, 0x00, 0x00, 0x00,
  0x08, 0x00, 0x00, 0x00, 0xce, 0xff, 0xff, 0xff, 0x00, 0x00, 0x00, 0x08,
  0x18, 0x00, 0x00, 0x00, 0x0c, 0x00, 0x00, 0x00, 0x04, 0x00, 0x00, 0x00,
  0xd0, 0xfb, 0xff, 0xff, 0x01, 0x00, 0x00, 0x00, 0x08, 0x00, 0x00, 0x00,
  0x03, 0x00, 0x00, 0x00, 0x07, 0x00, 0x00, 0x00, 0x09, 0x00, 0x00, 0x00,
  0x0a, 0x00, 0x00, 0x00, 0x00, 0x00, 0x0e, 0x00, 0x14, 0x00, 0x00, 0x00,
  0x08, 0x00, 0x0c, 0x00, 0x07, 0x00, 0x10, 0x00, 0x0e, 0x00, 0x00, 0x00,
  0x00, 0x00, 0x00, 0x08, 0x1c, 0x00, 0x00, 0x00, 0x10, 0x00, 0x00, 0x00,
  0x04, 0x00, 0x00, 0x00, 0xba, 0xff, 0xff, 0xff, 0x00, 0x00, 0x00, 0x01,
  0x01, 0x00, 0x00, 0x00, 0x07, 0x00, 0x00, 0x00, 0x03, 0x00, 0x00, 0x00,
  0x04, 0x00, 0x00, 0x00, 0x05, 0x00, 0x00, 0x00, 0x06, 0x00, 0x00, 0x00,
  0x00, 0x00, 0x0e, 0x00, 0x16, 0x00, 0x00, 0x00, 0x08, 0x00, 0x0c, 0x00,
  0x07, 0x00, 0x10, 0x00, 0x0e, 0x00, 0x00, 0x00, 0x00, 0x00, 0x00, 0x08,
  0x24, 0x00, 0x00, 0x00, 0x18, 0x00, 0x00, 0x00, 0x0c, 0x00, 0x00, 0x00,
  0x00, 0x00, 0x06, 0x00, 0x08, 0x00, 0x07, 0x00, 0x06, 0x00, 0x00, 0x00,
  0x00, 0x00, 0x00, 0x01, 0x01, 0x00, 0x00, 0x00, 0x04, 0x00, 0x00, 0x00,
  0x03, 0x00, 0x00, 0x00, 0x01, 0x00, 0x00, 0x00, 0x02, 0x00, 0x00, 0x00,
  0x03, 0x00, 0x00, 0x00, 0x01, 0x00, 0x00, 0x00, 0x00, 0x00, 0x00, 0x00,
  0x01, 0x00, 0x00, 0x00, 0x01, 0x00, 0x00, 0x00, 0x0b, 0x00, 0x00, 0x00,
  0x5c, 0x03, 0x00, 0x00, 0xf0, 0x02, 0x00, 0x00, 0x8c, 0x02, 0x00, 0x00,
  0x40, 0x02, 0x00, 0x00, 0xf8, 0x01, 0x00, 0x00, 0x94, 0x01, 0x00, 0x00,
  0x48, 0x01, 0x00, 0x00, 0x00, 0x01, 0x00, 0x00, 0xb4, 0x00, 0x00, 0x00,
  0x50, 0x00, 0x00, 0x00, 0x04, 0x00, 0x00, 0x00, 0xde, 0xfc, 0xff, 0xff,
  0x3c, 0x00, 0x00, 0x00, 0x06, 0x00, 0x00, 0x00, 0x0c, 0x00, 0x00, 0x00,
  0x04, 0x00, 0x00, 0x00, 0xd0, 0xfc, 0xff, 0xff, 0x21, 0x00, 0x00, 0x00,
  0x73, 0x65, 0x71, 0x75, 0x65, 0x6e, 0x74, 0x69, 0x61, 0x6c, 0x5f, 0x35,
  0x2f, 0x64, 0x65, 0x6e, 0x73, 0x65, 0x5f, 0x31, 0x38, 0x2f, 0x4d, 0x61,
  0x74, 0x4d, 0x75, 0x6c, 0x5f, 0x62, 0x69, 0x61, 0x73, 0x00, 0x00, 0x00,
  0x01, 0x00, 0x00, 0x00, 0x03, 0x00, 0x00, 0x00, 0x26, 0xfd, 0xff, 0xff,
  0x50, 0x00, 0x00, 0x00, 0x02, 0x00, 0x00, 0x00, 0x0c, 0x00, 0x00, 0x00,
  0x04, 0x00, 0x00, 0x00, 0x18, 0xfd, 0xff, 0xff, 0x35, 0x00, 0x00, 0x00,
  0x73, 0x65, 0x71, 0x75, 0x65, 0x6e, 0x74, 0x69, 0x61, 0x6c, 0x5f, 0x35,
  0x2f, 0x64, 0x65, 0x6e, 0x73, 0x65, 0x5f, 0x31, 0x38, 0x2f, 0x4d, 0x61,
  0x74, 0x4d, 0x75, 0x6c, 0x2f, 0x52, 0x65, 0x61, 0x64, 0x56, 0x61, 0x72,
  0x69, 0x61, 0x62, 0x6c, 0x65, 0x4f, 0x70, 0x2f, 0x74, 0x72, 0x61, 0x6e,
  0x73, 0x70, 0x6f, 0x73, 0x65, 0x00, 0x00, 0x00, 0x02, 0x00, 0x00, 0x00,
  0x03, 0x00, 0x00, 0x00, 0x10, 0x00, 0x00, 0x00, 0x86, 0xfd, 0xff, 0xff,
  0x38, 0x00, 0x00, 0x00, 0x0b, 0x00, 0x00, 0x00, 0x0c, 0x00, 0x00, 0x00,
  0x04, 0x00, 0x00, 0x00, 0x78, 0xfd, 0xff, 0xff, 0x1d, 0x00, 0x00, 0x00,
  0x73, 0x65, 0x71, 0x75, 0x65, 0x6e, 0x74, 0x69, 0x61, 0x6c, 0x5f, 0x35,
  0x2f, 0x64, 0x65, 0x6e, 0x73, 0x65, 0x5f, 0x31, 0x38, 0x2f, 0x42, 0x69,
  0x61, 0x73, 0x41, 0x64, 0x64, 0x00, 0x00, 0x00, 0x02, 0x00, 0x00, 0x00,
  0x01, 0x00, 0x00, 0x00, 0x03, 0x00, 0x00, 0x00, 0xce, 0xfd, 0xff, 0xff,
  0x34, 0x00, 0x00, 0x00, 0x05, 0x00, 0x00, 0x00, 0x0c, 0x00, 0x00, 0x00,
  0x04, 0x00, 0x00, 0x00, 0xc0, 0xfd, 0xff, 0xff, 0x1a, 0x00, 0x00, 0x00,
  0x73, 0x65, 0x71, 0x75, 0x65, 0x6e, 0x74, 0x69, 0x61, 0x6c, 0x5f, 0x35,
  0x2f, 0x64, 0x65, 0x6e, 0x73, 0x65, 0x5f, 0x31, 0x37, 0x2f, 0x52, 0x65,
  0x6c, 0x75, 0x00, 0x00, 0x02, 0x00, 0x00, 0x00, 0x01, 0x00, 0x00, 0x00,
  0x10, 0x00, 0x00, 0x00, 0x12, 0xfe, 0xff, 0xff, 0x3c, 0x00, 0x00, 0x00,
  0x01, 0x00, 0x00, 0x00, 0x0c, 0x00, 0x00, 0x00, 0x04, 0x00, 0x00, 0x00,
  0x04, 0xfe, 0xff, 0xff, 0x21, 0x00, 0x00, 0x00, 0x73, 0x65, 0x71, 0x75,
  0x65, 0x6e, 0x74, 0x69, 0x61, 0x6c, 0x5f, 0x35, 0x2f, 0x64, 0x65, 0x6e,
  0x73, 0x65, 0x5f, 0x31, 0x37, 0x2f, 0x4d, 0x61, 0x74, 0x4d, 0x75, 0x6c,
  0x5f, 0x62, 0x69, 0x61, 0x73, 0x00, 0x00, 0x00, 0x01, 0x00, 0x00, 0x00,
  0x10, 0x00, 0x00, 0x00, 0x5a, 0xfe, 0xff, 0xff, 0x50, 0x00, 0x00, 0x00,
  0x03, 0x00, 0x00, 0x00, 0x0c, 0x00, 0x00, 0x00, 0x04, 0x00, 0x00, 0x00,
  0x4c, 0xfe, 0xff, 0xff, 0x35, 0x00, 0x00, 0x00, 0x73, 0x65, 0x71, 0x75,
  0x65, 0x6e, 0x74, 0x69, 0x61, 0x6c, 0x5f, 0x35, 0x2f, 0x64, 0x65, 0x6e,
  0x73, 0x65, 0x5f, 0x31, 0x37, 0x2f, 0x4d, 0x61, 0x74, 0x4d, 0x75, 0x6c,
  0x2f, 0x52, 0x65, 0x61, 0x64, 0x56, 0x61, 0x72, 0x69, 0x61, 0x62, 0x6c,
  0x65, 0x4f, 0x70, 0x2f, 0x74, 0x72, 0x61, 0x6e, 0x73, 0x70, 0x6f, 0x73,
  0x65, 0x00, 0x00, 0x00, 0x02, 0x00, 0x00, 0x00, 0x10, 0x00, 0x00, 0x00,
  0x10, 0x00, 0x00, 0x00, 0xba, 0xfe, 0xff, 0xff, 0x34, 0x00, 0x00, 0x00,
  0x0a, 0x00, 0x00, 0x00, 0x0c, 0x00, 0x00, 0x00, 0x04, 0x00, 0x00, 0x00,
  0xac, 0xfe, 0xff, 0xff, 0x1a, 0x00, 0x00, 0x00, 0x73, 0x65, 0x71, 0x75,
  0x65, 0x6e, 0x74, 0x69, 0x61, 0x6c, 0x5f, 0x35, 0x2f, 0x64, 0x65, 0x6e,
  0x73, 0x65, 0x5f, 0x31, 0x36, 0x2f, 0x52, 0x65, 0x6c, 0x75, 0x00, 0x00,
  0x02, 0x00, 0x00, 0x00, 0x01, 0x00, 0x00, 0x00, 0x10, 0x00, 0x00, 0x00,
  0xfe, 0xfe, 0xff, 0xff, 0x3c, 0x00, 0x00, 0x00, 0x09, 0x00, 0x00, 0x00,
  0x0c, 0x00, 0x00, 0x00, 0x04, 0x00, 0x00, 0x00, 0xf0, 0xfe, 0xff, 0xff,
  0x21, 0x00, 0x00, 0x00, 0x73, 0x65, 0x71, 0x75, 0x65, 0x6e, 0x74, 0x69,
  0x61, 0x6c, 0x5f, 0x35, 0x2f, 0x64, 0x65, 0x6e, 0x73, 0x65, 0x5f, 0x31,
  0x36, 0x2f, 0x4d, 0x61, 0x74, 0x4d, 0x75, 0x6c, 0x5f, 0x62, 0x69, 0x61,
  0x73, 0x00, 0x00, 0x00, 0x01, 0x00, 0x00, 0x00, 0x10, 0x00, 0x00, 0x00,
  0x46, 0xff, 0xff, 0xff, 0x50, 0x00, 0x00, 0x00, 0x08, 0x00, 0x00, 0x00,
  0x0c, 0x00, 0x00, 0x00, 0x04, 0x00, 0x00, 0x00, 0x38, 0xff, 0xff, 0xff,
  0x35, 0x00, 0x00, 0x00, 0x73, 0x65, 0x71, 0x75, 0x65, 0x6e, 0x74, 0x69,
  0x61, 0x6c, 0x5f, 0x35, 0x2f, 0x64, 0x65, 0x6e, 0x73, 0x65, 0x5f, 0x31,
  0x36, 0x2f, 0x4d, 0x61, 0x74, 0x4d, 0x75, 0x6c, 0x2f, 0x52, 0x65, 0x61,
  0x64, 0x56, 0x61, 0x72, 0x69, 0x61, 0x62, 0x6c, 0x65, 0x4f, 0x70, 0x2f,
  0x74, 0x72, 0x61, 0x6e, 0x73, 0x70, 0x6f, 0x73, 0x65, 0x00, 0x00, 0x00,
  0x02, 0x00, 0x00, 0x00, 0x10, 0x00, 0x00, 0x00, 0x0f, 0x00, 0x00, 0x00,
  0xa6, 0xff, 0xff, 0xff, 0x48, 0x00, 0x00, 0x00, 0x07, 0x00, 0x00, 0x00,
  0x2c, 0x00, 0x00, 0x00, 0x0c, 0x00, 0x00, 0x00, 0x08, 0x00, 0x0c, 0x00,
  0x04, 0x00, 0x08, 0x00, 0x08, 0x00, 0x00, 0x00, 0x10, 0x00, 0x00, 0x00,
  0x04, 0x00, 0x00, 0x00, 0x01, 0x00, 0x00, 0x00, 0x00, 0x00, 0x7f, 0x43,
  0x01, 0x00, 0x00, 0x00, 0x00, 0x00, 0x00, 0x00, 0x0e, 0x00, 0x00, 0x00,
  0x64, 0x65, 0x6e, 0x73, 0x65, 0x5f, 0x31, 0x36, 0x5f, 0x69, 0x6e, 0x70,
  0x75, 0x74, 0x00, 0x00, 0x02, 0x00, 0x00, 0x00, 0x01, 0x00, 0x00, 0x00,
  0x0f, 0x00, 0x00, 0x00, 0x00, 0x00, 0x0e, 0x00, 0x14, 0x00, 0x04, 0x00,
  0x00, 0x00, 0x08, 0x00, 0x0c, 0x00, 0x10, 0x00, 0x0e, 0x00, 0x00, 0x00,
  0x28, 0x00, 0x00, 0x00, 0x04, 0x00, 0x00, 0x00, 0x10, 0x00, 0x00, 0x00,
  0x08, 0x00, 0x00, 0x00, 0x04, 0x00, 0x04, 0x00, 0x04, 0x00, 0x00, 0x00,
  0x08, 0x00, 0x00, 0x00, 0x49, 0x64, 0x65, 0x6e, 0x74, 0x69, 0x74, 0x79,
  0x00, 0x00, 0x00, 0x00, 0x02, 0x00, 0x00, 0x00, 0x01, 0x00, 0x00, 0x00,
  0x03, 0x00, 0x00, 0x00, 0x02, 0x00, 0x00, 0x00, 0x20, 0x00, 0x00, 0x00,
  0x0c, 0x00, 0x00, 0x00, 0x00, 0x00, 0x06, 0x00, 0x06, 0x00, 0x05, 0x00,
  0x06, 0x00, 0x00, 0x00, 0x00, 0x0e, 0x0a, 0x00, 0x0c, 0x00, 0x07, 0x00,
  0x00, 0x00, 0x08, 0x00, 0x0a, 0x00, 0x00, 0x00, 0x00, 0x00, 0x00, 0x09,
  0x03, 0x00, 0x00, 0x00
};
const int mi_data_len = 3820;


